0_25_param_0 15.220974 108.644943 59.112728 71.770416 99.806602 70.068962 45.407822 17.545601 54.596138 26.177134 14.160278 14.791629 21.221931 73.349129 14.172625 22.719776 25.721519 13.162753 66.081299 211.804565 11.050985 44.203941 41.390198 13.695029 30.875593 25.499607 63.252918 24.371815 17.863737 15.813230 58.265232 65.780472 
1_33_param_0 247.710480 127.623161 162.865372 414.826141 312.615387 116.530464 281.794159 144.658508 247.710480 525.977783 150.170898 215.847305 301.560577 254.000000 104.456223 1322.802246 387.913483 209.585815 284.102661 179.748444 168.565140 149.480453 478.998169 357.029510 222.684937 191.952774 176.455902 339.772705 737.861023 158.788773 291.750977 310.562378 383.339722 642.609009 251.057922 841.054138 131.961441 302.261475 357.274719 437.136139 487.984985 314.125610 695.909058 152.728134 274.073761 152.459549 327.370667 302.261475 930.576050 316.034027 224.220688 178.883087 193.812225 243.080368 320.908081 287.876038 281.641571 123.035004 296.068298 684.913757 308.902618 271.357330 143.382584 342.908386 
2_41_param_0 219.302246 103.400650 64.750641 105.989983 200.435669 141.477432 97.824348 98.660454 35.527699 63.615231 117.788498 119.563087 123.879021 104.852188 126.785820 55.063313 87.268730 222.569672 185.909225 113.777779 274.542694 196.253479 162.062546 354.186890 129.633484 83.702042 20.761282 148.336441 143.313766 243.950043 44.366177 96.486320 78.867081 69.008698 65.015877 199.647797 117.897865 137.419907 26.675631 183.358841 166.963837 84.313416 195.498077 148.249847 98.890968 68.193344 95.758675 138.167572 75.089294 97.225113 180.620193 139.075577 172.287659 111.090111 170.095108 87.089165 155.703247 166.525894 75.761337 111.284836 136.094315 101.499603 152.891037 230.446457 
4_54_param_0 49.833595 42.466888 61.879143 51.574329 66.794319 45.380985 51.784664 34.768894 34.979614 43.514736 40.854568 73.866203 52.862614 42.897297 57.927006 56.333630 79.708725 40.055519 71.254768 55.206955 84.990631 48.024204 42.926300 62.151737 48.279846 30.032167 39.409061 165.656876 23.358353 54.263248 39.804390 57.768879 
5_62_param_0 84.933777 101.906898 85.276024 135.585693 65.283287 122.327553 102.648346 116.065811 116.598717 116.705879 114.392792 89.482735 98.968040 103.064934 57.663940 84.034416 144.127121 62.396069 116.598717 65.182755 84.763687 94.616989 133.518402 136.240341 104.421051 129.237656 109.745895 94.126022 96.121117 144.537277 80.568527 103.400650 
7_73_param_0 243.763824 160.157639 152.638504 108.917923 174.093704 219.861374 94.374458 202.566971 259.059753 123.151512 123.619774 169.223160 125.771759 147.446716 112.498268 155.559814 173.281815 237.097534 202.409332 97.050743 175.266846 177.782639 154.911255 200.073853 186.448746 221.546844 182.651688 248.420242 177.056503 196.447128 233.269958 107.211868 180.999298 217.471573 261.403015 144.819595 167.803864 146.946899 121.540184 205.609482 138.496277 193.379929 212.323273 196.447128 266.628387 150.170898 172.591904 197.641342 188.338882 279.072968 143.145844 211.977173 246.770401 122.918716 147.363174 195.120773 170.442993 122.340546 183.166199 150.780289 181.504532 89.135025 171.793930 92.560852 
10_88_param_0 115.014496 143.152191 143.475708 192.826126 120.584991 368.580566 178.086960 131.445129 188.952377 178.965469 106.702522 185.909225 143.638016 242.783936 79.014313 167.625076 203.487183 130.970596 212.157059 183.491333 192.242233 70.503052 135.296753 105.025642 135.658127 54.731033 194.004578 246.555344 254.716156 306.520203 168.514923 180.748749 168.963409 54.078365 100.854645 53.531197 143.719299 263.162689 163.839996 175.745331 197.320908 71.415070 257.036438 154.660172 112.268791 165.765015 53.128033 161.649902 142.830139 230.028992 164.157730 263.983368 181.653793 223.156418 213.225861 204.305710 229.405594 221.598602 46.889217 59.334579 320.040314 120.128670 74.429077 129.898727 326.416443 128.258591 194.301453 257.427277 317.837311 267.036804 271.461243 134.508469 215.031326 392.506958 168.403183 200.752563 176.600830 399.295593 362.271027 238.676697 362.529633 341.104095 177.340775 264.671173 342.022888 89.799149 244.419632 375.668640 240.484848 270.018066 179.852692 131.241348 173.939728 389.496918 313.327576 149.207993 198.866089 138.167572 165.441040 120.356400 85.563339 240.484848 408.940430 144.045380 462.151031 509.176941 280.609955 208.157379 218.359421 235.140747 484.641235 280.920349 263.709229 576.835876 168.068832 253.698303 183.491333 427.169037 109.462067 446.312836 248.485321 450.669037 122.563705 367.779877 371.003662 260.731018 221.792145 527.966736 
12_101_param_0 122.092308 60.580154 183.491333 90.957024 63.235062 73.694717 105.549461 43.071915 113.982048 124.181908 111.284836 102.565430 43.514736 59.837891 45.972485 68.971214 67.829063 45.906002 122.919655 45.380985 91.415405 49.025482 63.329678 64.324211 87.328751 47.915470 63.871227 133.518402 36.890179 103.484924 111.090111 104.506996 48.575363 53.803391 55.351353 66.133331 46.785557 107.152740 121.741135 60.007561 62.952900 149.824188 137.197189 94.335808 64.161697 22.690493 61.222759 74.124924 56.685715 85.104561 130.231796 59.279179 54.731033 68.487595 116.491745 63.871227 87.569656 60.464764 86.143829 62.890541 78.331894 61.459827 92.279068 53.306465 
13_109_param_0 163.628860 168.626831 94.970833 160.323227 195.197540 114.392792 127.103104 136.606781 153.260101 83.427071 112.767319 103.484924 130.970596 118.227188 92.683212 83.481918 171.937714 154.003632 133.028809 79.509079 109.367783 95.255814 117.353050 88.918770 89.926346 139.075577 55.206955 126.030769 120.699623 123.038757 99.823898 115.223228 170.666672 137.792725 130.768280 136.975189 113.270294 119.788681 152.523727 97.374229 107.515663 132.959167 90.374374 97.076454 133.940933 129.898727 128.000000 104.249588 120.242424 133.658951 137.049103 120.128670 191.806641 158.324188 68.120171 156.182037 131.581345 122.445518 146.623550 123.517509 132.335587 115.642990 99.745483 124.425285 
15_120_param_0 244.221603 275.963928 126.505836 172.363159 194.828461 150.344513 270.651398 199.154678 204.156982 142.674713 191.669861 245.142319 223.642303 262.458130 223.066895 151.394638 329.652710 258.930817 314.125610 227.555557 307.442078 161.249847 204.477982 250.574188 236.450912 247.239548 260.096008 199.154678 322.299866 169.886353 252.765793 264.459595 253.504868 167.049454 206.098251 192.094528 280.729614 249.612289 222.114426 355.322418 232.228577 315.267883 185.782852 192.806519 149.566422 143.461670 142.518356 163.891617 228.354691 190.686218 303.495911 266.765137 211.804565 189.023254 158.788773 303.495911 347.954529 285.819794 288.035431 298.789215 283.174744 195.560898 178.270050 252.031006 356.052032 145.712051 171.454193 338.887299 220.982162 192.378693 174.795700 218.568069 267.726196 265.810944 274.652588 112.110344 283.483368 332.603577 257.903809 227.555557 249.852066 247.946609 280.426941 272.637329 209.585815 208.243393 199.307281 282.866760 269.949158 219.490295 174.444000 116.739677 256.631470 378.321442 180.873428 213.718979 127.937042 138.128525 382.213074 207.082809 187.254135 181.885315 350.770050 212.844513 193.523804 247.946609 230.173447 213.543518 209.080383 233.269958 327.783234 293.727844 187.254135 304.205841 163.891617 153.902954 144.497772 126.015503 213.193436 294.392761 177.418823 249.852066 156.401688 225.386475 144.900284 147.697906 274.073761 132.905472 
18_135_param_0 263.435699 230.028992 301.784912 144.537277 243.482269 158.521851 157.245819 264.533325 150.982162 240.030243 283.903870 284.221588 318.036316 184.290283 271.026672 262.347107 238.452576 169.527374 166.307800 219.302246 424.314117 232.983490 165.225769 367.513763 221.212540 210.225159 240.030243 265.362579 209.358612 125.532379 264.671173 217.984543 153.445313 132.404587 301.964325 74.168221 226.137131 200.911392 233.626495 258.343842 364.088898 96.193939 136.753906 204.800003 81.238640 274.246216 215.578949 305.230774 319.637512 219.302246 284.859222 170.323273 359.196594 274.839813 162.789749 206.633041 277.088928 222.180222 324.539307 371.003662 327.468719 240.484848 149.735855 190.654648 160.020157 194.599228 210.051285 253.318710 143.152191 237.782776 233.841614 301.426697 251.188919 241.169983 150.534683 245.601547 197.474335 236.234421 185.501831 264.120636 197.936081 256.387695 234.923218 263.572388 321.865662 228.374100 206.633041 464.688019 169.527374 202.030228 267.599579 323.711914 219.302246 308.194183 257.166595 305.414307 273.213562 258.738678 214.486481 275.884857 146.623550 56.635147 231.919632 300.179657 224.339218 197.781937 197.781937 148.076965 257.166595 345.748138 328.740448 113.574242 69.843788 128.518219 249.952759 247.516571 179.344635 303.407410 51.700325 180.877487 181.783829 248.972549 304.316345 260.463593 182.044449 126.281448 208.157379 236.895523 238.005630 569.718445 513.034363 161.752869 191.806641 1045.607788 358.183350 470.717316 169.981262 633.691833 410.925568 373.184418 222.764908 298.065735 497.457397 183.624008 359.705383 245.601547 344.108398 324.332062 759.198792 421.147583 313.134399 583.462402 370.192413 768.968933 211.274536 388.900452 85.621040 236.234421 419.062714 438.226044 348.356659 477.802460 559.982361 331.097778 485.104095 433.735260 548.492432 597.885803 200.593994 646.599609 197.628021 119.563087 420.102570 264.671173 208.670502 442.040039 608.632690 171.705200 344.575317 328.315460 282.168884 135.948608 789.897339 197.936081 290.396790 214.124786 309.320343 125.284660 292.571442 513.553101 471.591461 229.405594 328.103363 280.300232 338.377075 219.681656 196.101929 325.788330 319.838806 202.837067 434.477325 584.805969 173.346069 232.983490 323.711914 107.881050 500.891510 195.347687 233.411758 144.290909 334.367340 315.076935 123.397476 138.999451 320.040314 412.930084 717.378540 80.262955 319.035187 251.562164 503.373627 327.679993 368.313263 673.166321 411.258301 536.612793 123.038757 408.282959 397.732178 243.950043 306.890625 179.852692 251.313217 674.059692 215.578949 660.473328 138.318085 542.342773 195.648697 252.688553 198.555115 175.623795 357.427155 380.167664 377.343231 377.343231 365.135864 417.341003 427.169037 284.540070 340.875153 668.734680 270.593506 256.906433 221.598602 462.993622 
20_148_param_0 132.266663 116.065811 54.542953 96.780487 121.975021 41.658794 84.933777 116.920807 63.903374 117.570374 61.400387 102.235107 151.794388 82.936646 111.971779 33.609318 95.327324 64.226608 63.807034 62.921703 62.984127 70.307861 54.356163 115.327881 91.745667 125.346497 75.267342 44.459385 102.070740 32.793388 76.583839 47.449924 132.129028 67.504517 70.503052 73.609276 76.908539 162.789749 67.183067 59.113594 107.606781 84.201591 65.519089 71.576096 41.906269 63.871227 27.016171 103.823387 84.257462 77.518929 139.687576 70.620689 72.309792 110.413910 74.211571 89.043480 80.415451 70.152489 67.829063 58.568264 99.745483 34.807018 84.763687 113.068565 63.172138 80.313728 119.901794 103.400650 85.736664 74.603996 69.537788 43.544582 77.947205 48.169956 68.010712 64.389450 115.642990 59.003719 47.627907 63.298107 46.307804 57.042229 88.856544 75.491081 57.611614 50.467407 31.887493 140.927856 92.145142 99.122559 84.877007 109.651123 60.754066 51.365696 46.173092 85.968857 92.954613 142.349777 76.170364 82.936646 78.331894 89.990074 77.995087 91.547226 86.732239 50.709267 85.852600 106.792259 48.687115 84.090065 66.970467 86.437035 65.384140 81.919998 39.335812 152.432175 62.673248 70.659988 82.559166 52.426094 127.485947 37.236362 114.187050 26.169827 136.094315 38.594528 49.911949 34.730854 
21_156_param_0 118.558357 184.424103 176.600830 165.981705 189.941666 211.803177 138.923416 197.014740 198.399994 80.060532 154.378113 121.044807 150.001175 265.085602 153.910309 121.044807 122.919655 92.346184 102.814575 102.235107 93.364708 170.323273 243.950043 165.656876 219.871857 203.161606 87.148933 148.163361 167.735794 71.015663 86.260872 88.177780 164.476685 228.374100 223.549301 149.120377 131.173553 94.546539 175.502426 75.535988 174.537460 201.070465 84.990631 132.266663 101.499603 77.001816 153.352661 215.945572 161.649902 111.480247 180.491821 141.556305 91.944969 83.867897 166.090256 242.320618 138.847458 144.372940 155.703247 165.118332 178.839432 141.398666 145.698227 173.109741 201.229797 155.798767 170.437576 63.583374 177.837540 94.476189 151.885162 102.565430 99.045242 243.482269 174.537460 138.544464 189.799698 181.783829 163.628860 84.090065 174.058945 127.166748 136.386688 136.827591 94.195847 132.681290 198.090485 165.765015 117.788498 70.424850 184.961395 177.713089 137.568802 108.248932 117.788498 182.699280 163.945770 150.534683 147.904480 111.480247 81.394875 245.601547 147.904480 170.437576 242.089615 91.283966 102.482651 148.683838 156.663788 124.914902 154.848785 61.400387 170.209122 142.830139 148.770950 209.877686 132.404587 122.563705 157.051331 84.707138 216.497864 145.281464 150.534683 102.814575 118.891388 53.666950 141.635254 123.397476 
23_167_param_0 534.352356 197.191818 289.478027 422.576752 186.315186 356.295898 186.448746 188.612045 128.760391 292.571442 275.817596 318.160248 257.393372 293.893799 278.326385 228.354691 358.505859 280.881195 158.498474 297.422516 262.590607 334.528625 337.130280 271.782654 358.753113 323.905365 229.563995 192.521103 385.613037 266.628387 270.651398 405.449738 288.195007 248.657745 240.606842 296.913239 379.425232 411.544312 355.322418 261.271729 337.348907 295.395813 192.521103 290.610046 315.076935 180.371704 144.017715 195.855423 277.583771 279.072968 153.994080 263.789032 234.955734 252.520386 215.489639 240.829636 187.389053 193.956741 287.557770 418.834137 209.080383 187.659454 339.772705 346.794678 180.371704 399.840118 327.576813 167.049454 254.621628 279.522827 184.858566 267.864044 179.252930 366.332397 309.086151 151.747955 195.120773 353.872101 129.918076 141.203033 218.018448 304.383850 363.516418 273.497375 316.611084 150.084244 231.608185 145.793716 233.689133 166.301788 169.664703 231.402130 235.594208 259.447388 180.622223 279.522827 319.332092 321.106171 333.029449 224.802078 240.606842 242.175049 190.267746 306.897949 183.683609 498.745911 195.855423 387.335815 276.403839 231.402130 195.120773 321.503082 346.563629 237.747711 224.607941 279.522827 169.554108 267.313477 231.814621 325.526917 308.902618 375.589905 148.626282 116.634979 275.963928 230.786163 367.367218 343.814941 211.977173 412.196503 284.257935 276.697876 386.759857 304.919098 469.487366 317.383759 419.848267 335.607727 143.858414 440.467407 243.307770 248.657745 373.432892 271.640717 298.446350 235.594208 299.477264 270.933319 438.610443 197.641342 349.826508 407.354736 342.908386 306.536255 358.505859 185.121704 297.763031 247.474792 354.595764 292.571442 365.817169 269.111237 236.881607 198.243896 220.233704 508.994141 367.107971 254.497070 173.281815 328.404053 246.536499 265.946838 143.145844 299.649780 456.709381 262.061462 151.218597 171.003281 226.959854 216.746674 170.442993 356.295898 238.183151 493.540802 143.938019 333.029449 434.579773 156.495789 80.976341 276.697876 214.600662 273.066681 197.791641 428.141571 173.628845 236.236145 215.311264 228.154388 308.170624 211.460159 368.930511 207.082809 317.383759 293.396515 147.113129 262.193542 364.535400 193.092804 310.377075 301.910614 364.535400 191.106537 100.345680 204.638870 284.568939 225.191345 253.504868 277.140106 277.731995 31.111961 220.233704 331.755096 269.250519 297.252563 501.631622 259.059753 234.109818 174.913254 201.001541 433.132385 305.995300 248.657745 384.189056 316.418488 363.770630 125.287094 220.982162 340.439789 252.765793 293.562073 148.711258 308.902618 323.502502 338.006500 258.802002 385.613037 247.710480 237.747711 217.835846 186.048645 394.383636 233.479355 224.220688 264.998474 186.181824 327.576813 
26_182_param_0 500.644653 571.642090 553.573853 382.457825 514.072876 549.382385 330.022095 628.205322 298.240753 392.506958 366.982666 602.138733 669.616333 368.313263 425.736786 309.697571 527.144775 218.171814 823.183167 335.250153 392.203857 314.686493 262.482697 472.908752 468.546112 430.427124 475.565552 146.793060 456.337830 504.623932 368.580566 565.909729 386.827118 423.959930 383.613281 274.098206 257.036438 377.904755 417.684204 229.820816 610.828613 515.900452 542.922485 278.456146 519.594910 554.783203 476.905151 343.642761 432.258728 555.997803 226.137131 610.828613 643.731323 572.931763 271.606415 504.623932 334.808167 618.264160 510.712921 522.534973 534.073608 240.484848 416.314758 513.812866 733.965332 620.530212 474.676636 443.972015 255.613495 547.310364 254.206207 181.653793 609.728699 487.431854 496.000000 488.839264 704.443848 235.140747 238.676697 524.694214 394.029480 638.070374 503.873016 463.839264 609.728699 647.011475 615.268311 445.920990 320.040314 484.179230 445.920990 287.601349 516.162598 644.139526 626.655151 426.810089 211.450455 315.664398 323.299805 494.070038 314.297028 411.258301 323.918365 326.836548 429.335602 481.425598 544.669189 617.137329 294.607880 271.461243 500.151642 420.450317 505.628662 489.310211 658.760071 379.032837 459.641632 426.810089 519.329224 425.736786 788.670837 423.959930 433.735260 262.211670 705.422241 496.000000 577.163635 252.940247 445.529816 523.073120 359.960297 833.996704 480.969696 406.974365 345.512939 351.004852 475.120667 528.516113 226.945480 614.895874 447.887115 447.492523 444.360443 350.278625 563.711426 248.850571 666.103577 396.180969 335.915344 420.798676 342.022888 383.323761 764.340088 681.293091 468.978760 515.638550 613.781250 252.688553 231.075516 435.595184 249.461685 407.627594 319.436493 197.781937 612.670715 335.029022 700.557251 470.281494 496.000000 445.529816 272.042847 272.626953 493.589905 93.571114 290.562927 540.898804 473.349487 724.025635 593.345764 408.282959 411.591583 712.347839 641.698059 663.493164 468.114288 560.909973 521.462036 449.870697 224.935349 461.311523 322.478729 345.748138 707.880127 260.330078 384.484467 487.900085 153.075348 268.448212 483.718109 596.131470 426.451721 527.144775 528.791260 555.086365 643.731323 572.608765 364.611633 309.886505 598.590454 289.074554 307.447937 206.633041 531.280334 644.548218 383.323761 677.657104 422.900909 377.904755 603.211426 222.960495 355.924316 414.954254 450.269501 485.567871 613.040405 867.470520 500.891510 268.023224 364.873566 514.854553 365.661621 461.311523 312.364075 555.086365 572.931763 406.974365 329.807800 350.037201 468.546112 156.857315 280.920349 271.897217 257.427277 280.300232 207.646774 411.258301 573.255066 745.273682 408.940430 421.497101 757.500366 354.929413 288.417938 572.286194 132.060318 327.891541 246.794952 501.881409 265.918335 335.693329 642.103638 809.408752 627.429260 308.381287 393.724030 276.786926 268.732269 387.121948 309.508850 541.764282 396.799988 599.296753 470.281494 309.697571 607.177551 280.145630 570.358215 177.713089 314.491638 371.546448 340.190216 543.503479 381.309296 490.728516 403.418579 305.598083 562.151611 301.964325 215.578949 495.033142 557.829773 244.891037 513.812866 420.450317 461.311523 472.029755 508.158081 461.311523 436.718842 434.849304 282.482758 407.627594 408.611420 453.081177 641.292908 496.242310 180.748749 361.240387 555.997803 222.180222 412.930084 510.712921 401.187988 426.093964 275.735077 443.972015 363.567657 558.136292 500.151642 560.600464 565.909729 314.102661 381.309296 503.373627 238.676697 214.849411 546.427124 435.969086 660.044189 486.964539 490.728516 205.462784 353.201660 552.971130 704.443848 303.045349 379.883331 504.874756 669.616333 212.868393 461.311523 416.314758 230.865448 421.497101 279.836914 267.599579 349.555389 271.461243 337.477753 362.788574 319.637512 357.930939 487.900085 486.498077 675.404236 455.928192 449.870697 548.196411 468.546112 400.555206 537.464539 423.606354 307.447937 261.536560 387.712982 368.580566 732.377808 248.000000 465.113556 246.794952 310.075714 519.329224 699.592285 425.736786 310.075714 571.963989 626.268799 366.188904 257.036438 326.836548 536.329468 657.055603 203.324265 439.363312 353.940063 277.846832 745.273682 360.727264 678.109497 254.971893 245.839310 185.909225 636.471191 201.389374 334.367340 214.305481 264.258057 381.023254 665.231201 279.528900 788.058960 552.369751 133.729324 436.718842 650.325195 247.516571 366.982666 579.799072 397.110229 391.901245 691.967285 417.684204 492.632385 423.606354 729.223267 447.887115 597.182861 888.720886 659.187561 701.524841 626.655151 277.240173 182.175034 366.982666 418.717224 697.670349 339.054749 382.170044 453.890961 460.057983 336.583160 189.657959 539.749207 487.431854 603.928650 722.994995 774.243896 477.802460 294.607880 500.398041 358.436127 655.359985 551.470154 474.676636 334.587616 325.162598 560.291260 311.025116 663.060059 529.894653 345.748138 319.035187 616.388367 376.225189 447.492523 375.390991 200.277603 512.516663 217.238663 232.769943 248.242432 504.874756 552.670288 414.277313 166.963837 436.718842 324.539307 304.864349 205.629150 191.806641 479.607178 457.571167 292.908875 320.242126 241.399246 134.579758 425.380249 343.178375 724.025635 280.300232 404.382172 439.743713 561.840698 395.256042 730.271729 583.462402 118.558357 374.836914 391.297394 454.296967 355.924316 610.828613 653.673096 721.967285 509.432312 249.584274 663.060059 431.157898 599.650513 133.378159 552.670288 505.880493 363.047882 253.066269 517.477356 403.098419 269.731293 423.253326 374.560486 690.086975 402.778748 237.116714 
27_192_param_0 388.492920 164.409607 251.300476 161.349869 363.262573 168.565140 168.893509 114.177345 318.160248 446.900330 403.875763 331.966827 147.113129 290.123810 155.096008 326.753754 383.057434 282.406067 391.710846 206.098251 270.933319 262.193542 493.072998 153.087692 524.387085 363.516418 392.597748 203.677368 143.382584 127.373161 184.990036 208.243393 157.062805 303.850464 404.189575 513.009888 373.701141 201.156998 347.721924 262.723236 230.581558 219.490295 445.751495 133.314194 269.111237 384.757385 250.333008 300.515320 185.385605 132.769775 240.606842 322.900055 332.178802 200.691360 181.125351 191.528717 370.243408 111.342468 357.766174 363.262573 175.385025 239.940964 378.321442 240.162506 195.413971 359.000702 362.250702 240.162506 277.583771 393.786530 142.284470 174.561081 256.758148 535.728088 407.035980 463.216370 183.295273 317.577545 290.447784 336.693848 534.352356 196.150833 213.894730 383.057434 258.287994 170.442993 255.246323 339.772705 163.685333 218.936020 429.910736 272.066956 570.073425 329.861755 244.221603 322.900055 272.494507 420.527069 364.791016 371.035675 302.789276 274.507660 157.347855 329.027191 169.886353 392.894257 250.815811 203.836990 585.801819 427.437958 298.104309 319.724640 168.238037 164.409607 254.621628 178.392319 232.644012 118.225456 235.594208 216.206146 237.313873 224.996536 417.154785 494.949585 135.466660 124.567047 421.208099 214.423737 448.055115 510.242279 295.395813 618.539856 483.449829 350.061920 580.895569 241.724915 478.998169 432.412292 522.806030 329.652710 331.755096 550.176636 291.750977 217.835846 395.583282 232.852280 294.059906 164.409607 209.754837 399.533020 265.268738 272.209320 277.287842 264.459595 178.147949 256.504944 296.068298 146.532959 312.615387 282.559479 298.446350 418.834137 119.419655 497.315491 429.910736 491.674866 248.657745 251.300476 149.480453 157.443100 141.741684 160.553085 307.079102 162.255768 373.969818 286.765167 451.555542 281.032959 276.992554 338.666656 305.635712 539.618286 173.860962 233.060928 207.578613 165.245239 165.771835 308.353302 231.196442 395.884308 256.504944 519.412903 298.960907 348.888000 202.409332 279.974152 434.943146 255.246323 388.492920 166.835144 325.323334 172.249008 256.126038 420.187408 367.886841 496.366425 177.539932 226.959854 178.514755 163.582397 318.745087 334.313629 510.994110 352.911804 273.497375 224.027557 104.792908 370.771210 298.789215 215.489639 262.458130 157.921066 135.325699 191.247055 401.692657 414.826141 253.258026 446.516724 836.321533 176.097488 301.735504 341.557465 260.356354 387.047607 135.255325 141.049896 137.544159 288.195007 445.751495 287.398895 223.258362 318.549896 272.066956 375.048309 150.692932 506.023346 398.004578 225.386475 205.609482 250.574188 478.117645 469.064026 157.633942 334.528625 472.472290 98.595909 
28_200_param_0 107.062393 120.814461 104.506996 119.563087 144.455063 119.450615 173.227829 178.587906 124.792137 166.525894 244.655106 156.278152 94.265778 240.941177 204.634979 115.537758 207.986893 123.397476 94.899849 86.319511 281.075806 94.546539 213.584518 108.526497 170.323273 123.637779 128.778900 216.682587 154.097092 151.794388 265.501312 186.181824 124.976379 161.649902 105.637268 163.945770 363.307587 117.028572 274.098206 142.749863 100.376282 85.563339 156.182037 179.091675 377.904755 130.298615 69.690453 183.624008 158.819260 142.190369 165.656876 513.812866 97.749039 108.248932 82.828438 164.796890 161.649902 266.896484 161.341797 132.889587 167.514511 118.558357 154.284332 128.193848 122.682129 112.967972 202.030228 93.022713 79.211479 134.437271 102.981346 99.667191 234.057144 121.508133 144.045380 114.187050 114.702797 192.826126 115.223228 112.667259 169.754013 87.029472 131.649567 258.475311 187.418457 134.224106 143.882156 128.258591 158.127029 100.774605 115.537758 115.223228 177.962158 124.669609 134.937302 110.413910 130.903091 510.969818 166.307800 167.404083 141.162872 100.455696 117.897865 66.724121 125.222878 131.241348 110.222221 98.202629 224.537582 110.126625 113.879822 184.692368 137.197189 117.353050 179.091675 172.054199 72.145454 154.566040 160.729111 134.366135 121.975021 132.889587 236.895523 153.352661 101.256775 141.556305 216.682587 172.756470 109.556511 179.852692 166.854141 113.270294 82.078865 167.073685 137.718002 109.179710 172.756470 256.258331 105.725227 104.938843 70.036407 77.851624 315.860687 114.910408 119.002815 147.732407 106.256065 115.537758 177.588806 154.754425 133.028809 147.904480 114.084457 97.002289 515.115601 82.185112 113.068565 136.459961 75.580956 429.698822 249.461685 166.307800 148.858154 115.327881 71.616470 210.051285 85.678810 113.472740 108.805481 134.011612 153.538086 257.427277 98.737167 118.117210 87.569656 82.238342 165.981705 208.499176 219.491791 112.767319 133.238190 91.481270 181.783829 228.785583 91.415405 209.877686 103.484924 113.982048 140.150116 140.227493 96.048409 155.607849 134.651108 214.124786 134.794052 133.940933 106.434196 137.494308 62.611439 127.294235 155.132553 60.987511 98.126740 91.613274 157.832199 111.971779 165.656876 115.118767 145.198395 114.599281 123.758286 217.797592 157.051331 110.413910 88.794403 228.785583 129.171921 135.658127 134.722549 110.896072 305.966278 107.152740 103.316521 77.947205 262.347107 117.570374 354.186890 80.060532 113.574242 302.323822 120.015121 96.193939 130.432465 246.077515 230.655762 172.170853 370.462433 122.800774 69.767036 217.424652 112.467674 158.127029 130.566574 98.354767 124.000000 146.117371 141.951935 332.397919 135.441071 97.598770 77.330086 272.626953 123.517509 138.771591 132.542801 109.179710 108.156731 102.317490 170.666672 106.702522 256.387695 127.549973 179.980148 268.874542 127.806747 151.522675 130.365509 106.882156 1207.139648 97.076454 87.148933 112.767319 426.810089 121.044807 90.697144 83.536842 210.573792 149.471451 97.374229 159.517593 87.933517 120.814461 134.082367 135.152740 175.502426 170.666672 150.892456 296.153931 151.522675 102.897896 167.514511 194.450226 113.068565 140.382538 246.077515 56.991024 291.396454 191.806641 145.949432 196.405258 110.799301 110.510010 166.744583 118.891388 133.658951 157.832199 114.702797 112.070610 147.389435 120.242424 73.609276 99.823898 138.468918 194.004578 105.549461 143.394699 187.280243 148.858154 83.646904 203.977509 100.296997 132.404587 115.748405 147.048065 125.222878 148.683838 135.585693 98.890968 123.277672 115.854012 233.411758 102.400002 121.044807 116.598717 118.669159 248.000000 224.339218 145.364624 130.231796 158.028625 113.371429 91.745667 164.263901 117.679329 169.867554 200.752563 143.882156 90.957024 93.364708 129.699692 260.597229 211.450455 182.699280 118.007439 162.062546 84.650665 121.975021 131.377136 318.634888 111.971779 137.494308 64.194138 107.424706 95.542511 110.510010 137.197189 137.419907 264.671173 106.434196 147.560715 155.512558 208.328140 151.342072 154.097092 131.854614 102.897896 74.038483 100.296997 116.920807 190.941360 85.910690 77.424393 135.441071 101.988754 105.025642 100.774605 250.692993 94.195847 171.011444 85.161636 112.667259 225.134750 133.870316 105.461792 125.718811 266.896484 353.693604 190.226212 130.365509 108.248932 96.266869 154.097092 125.222878 126.218689 125.656609 133.799789 149.471451 109.651123 154.097092 130.566574 104.164070 291.898865 129.106247 89.356789 212.157059 133.448242 123.038757 130.768280 170.209122 261.536560 51.117554 229.405594 85.563339 143.313766 169.301331 95.398949 146.201492 97.299614 91.152908 224.935349 128.844238 362.529633 152.340729 159.018158 88.794403 115.223228 86.437035 130.298615 155.703247 94.616989 118.891388 129.699692 115.223228 131.377136 109.556511 139.457443 114.599281 151.703705 161.752869 123.397476 85.563339 227.555557 199.647797 62.304218 142.429611 149.295715 151.342072 180.107803 278.761810 182.175034 99.510971 79.608780 164.903900 302.143951 123.038757 239.577362 260.597229 207.646774 111.774651 87.811897 147.990677 240.712799 95.903320 131.513199 167.073685 180.363632 96.559692 129.765961 178.839432 200.119781 183.226547 183.358841 116.384972 157.440796 117.570374 124.000000 153.630981 127.485947 126.030769 100.138802 102.482651 92.279068 70.191269 127.294235 81.867180 142.910522 110.510010 84.313416 136.313477 94.616989 123.397476 152.523727 88.794403 114.599281 126.785820 103.823387 100.614899 127.935516 247.516571 61.341064 175.745331 123.517509 
29_208_param_0 201.468628 204.638870 582.521851 443.093689 247.239548 243.307770 439.722748 328.611511 441.589142 432.053162 439.351349 568.515869 437.872040 352.672546 541.021301 441.589142 518.894775 333.029449 405.765991 368.407928 437.503784 438.610443 454.316162 435.671692 427.437958 487.527649 528.650391 465.704559 528.919189 447.669525 398.309357 348.420624 405.133942 437.136139 562.065918 376.677765 376.133057 621.124756 432.772034 485.706818 434.943146 364.535400 333.456421 491.674866 493.540802 485.253723 415.488831 437.872040 461.572327 462.804260 359.745514 313.936035 385.613037 459.533569 374.238861 395.583282 433.132385 434.217041 416.486786 409.277740 426.736664 382.494110 380.257324 413.178711 508.000000 378.872528 478.557495 510.743256 474.627747 464.457153 483.899536 510.994110 469.487366 567.585388 494.949585 679.989563 416.153595 502.115845 429.910736 434.217041 468.641449 554.871460 440.094757 700.595276 336.258575 227.356644 183.683609 614.158203 306.355713 169.997391 293.231110 496.366425 386.472504 450.772949 446.900330 407.354736 487.527649 418.160767 339.772705 339.329407 363.770630 405.133942 406.082733 448.828308 377.497833 354.354218 329.861755 351.718719 445.751495 439.351349 488.443207 569.449341 481.659271 332.178802 442.716583 408.634735 513.262939 414.495605 423.264435 596.892700 437.136139 386.472504 667.768921 438.610443 502.600952 431.336639 417.824890 391.416107 492.606049 568.205322 478.557495 483.899536 491.674866 567.275879 466.121857 331.332489 455.908844 491.674866 512.252075 555.760681 479.439636 521.234497 499.224579 471.188416 465.288025 439.351349 383.339722 337.567810 475.930481 415.157227 335.607727 426.037689 422.233765 437.872040 643.006165 606.637878 443.471436 556.950745 552.807678 395.884308 787.573059 560.249878 524.651550 512.757019 630.535767 433.854889 464.042816 395.583282 821.788330 357.274719 384.473022 525.446472 873.538208 1164.391724 107.923653 292.406982 559.045654 489.362183 518.119507 443.471436 426.037689 398.614563 389.656921 415.157227 542.714661 443.849823 442.716583 449.604156 491.210571 534.901794 355.322418 382.494110 501.631622 653.097290 397.700317 445.369873 595.867126 519.412903 349.591400 676.452515 538.222473 752.266113 734.734436 444.988892 809.637329 680.879578 806.499207 1030.593384 486.160736 804.006165 909.426575 754.448181 554.871460 735.253723 869.159546 613.072510 759.404358 805.874512 713.080200 896.110229 402.937256 465.704559 538.779907 497.791382 702.487488 633.607788 717.011719 549.305176 469.911469 643.802002 439.722748 384.189056 400.764252 568.205322 378.872528 281.489166 473.332123 429.910736 569.761230 960.650024 846.528870 578.312378 578.634033 581.870239 475.930481 934.756531 500.666016 508.000000 636.709900 517.604004 572.583374 614.158203 396.487793 1142.651245 582.521851 
32_237_param_0 387.335815 262.855988 213.193436 229.159470 278.624542 280.426941 194.246460 277.583771 137.762711 158.788773 247.239548 247.239548 205.609482 155.839432 272.494507 243.992493 314.695709 218.384552 431.336639 219.490295 188.338882 189.436264 392.301666 273.497375 317.383759 269.250519 326.548645 387.913483 149.652481 210.093704 237.313873 171.567276 275.963928 114.883392 385.042206 270.370056 249.852066 337.567810 281.489166 141.126419 283.637939 212.844513 256.252228 211.116882 309.638092 314.505432 241.949768 200.691360 409.922760 172.363159 269.389954 195.708054 333.456421 179.748444 264.594086 322.499695 266.491791 259.318054 227.356644 181.631287 234.955734 220.047379 341.781860 205.123032 258.416290 154.451309 196.595612 176.455902 234.109818 110.867859 265.539551 269.949158 195.267273 253.011673 204.477982 189.989777 354.354218 330.490479 363.770630 317.577545 236.666061 272.637329 177.177109 237.313873 222.494446 162.865372 281.794159 305.815399 311.865723 129.659027 139.237686 177.177109 340.662750 280.124939 234.955734 367.367218 441.589142 198.698242 512.504456 358.505859 254.621628 232.021408 218.936020 156.968018 195.267273 292.242706 239.278748 220.607300 177.418823 358.505859 358.753113 253.258026 182.012604 303.318939 279.072968 289.317017 189.160721 199.307281 188.748917 355.322418 246.770401 305.097961 188.202606 280.729614 274.073761 304.028046 188.475357 394.982544 
35_251_param_0 330.882080 1107.751343 346.928955 213.046982 152.340729 451.871887 257.166595 377.343231 367.248016 317.440002 297.541901 234.706100 409.930603 309.886505 231.075516 336.806366 535.481262 244.419632 244.891037 593.692566 203.813797 269.588104 275.585449 651.158997 295.121429 390.395081 1704.375854 143.638016 446.312836 188.811890 177.588806 180.877487 167.073685 317.638519 224.537582 255.356461 222.960495 637.669800 164.583282 383.903259 715.861877 358.942749 312.364075 244.655106 318.235596 177.340775 166.416779 195.047623 568.125305 904.548523 301.605713 252.311966 408.940430 171.937714 263.572388 177.588806 169.188538 240.484848 235.358658 350.520355 125.161163 120.356400 212.512131 287.438599 248.606949 231.285980 273.213562 230.865448 398.981934 631.721375 182.305817 525.236816 209.186157 347.166107 364.873566 337.029846 276.034790 320.040314 304.681458 304.316345 229.198563 760.904846 231.075516 268.590149 337.926819 273.802704 308.756226 162.685455 260.597229 277.846832 127.935516 370.732849 147.048065 173.227829 462.993622 327.891541 289.734161 340.190216 277.694916 440.888885 256.906433 186.181824 419.062714 209.013992 331.097778 600.359314 406.323212 218.359421 353.940063 496.970642 398.981934 161.034882 351.977814 596.131470 259.399384 243.715927 206.801300 269.302216 212.334442 213.584518 209.531357 132.612015 208.499176 313.327576 121.391968 247.275558 205.795792 275.436005 139.228073 584.469482 752.450378 235.358658 242.320618 276.786926 271.897217 308.756226 203.977509 168.963409 312.748779 286.627533 142.830139 261.671295 730.271729 211.450455 453.890961 235.140747 243.016266 197.628021 247.275558 265.640167 580.461731 443.972015 244.419632 304.316345 267.881866 190.797897 269.302216 482.339966 162.894165 205.795792 330.236664 240.484848 242.089615 227.964096 259.399384 142.270035 311.980347 221.792145 219.302246 175.018600 177.340775 330.236664 152.891037 172.639023 397.110229 392.203857 199.490967 278.761810 216.682587 210.051285 252.311966 322.683594 177.713089 99.902435 161.137054 512.000000 304.134125 214.124786 240.484848 373.458832 312.941467 239.351563 330.236664 259.664612 468.546112 509.687897 251.562164 300.357178 250.445755 378.186157 340.190216 158.127029 361.240387 177.093445 257.819275 317.837311 353.693604 232.769943 242.552048 239.351563 372.363647 144.867081 138.468918 351.247589 216.497864 240.257339 165.656876 237.338318 226.137131 199.962204 321.458221 281.387268 200.277603 205.795792 192.972641 249.706985 559.673828 243.016266 257.036438 483.257843 334.587616 502.626434 279.836914 246.316193 385.652252 164.263901 351.977814 354.434052 484.641235 463.416046 287.601349 210.748550 323.505737 239.351563 425.736786 542.053345 260.196716 405.350372 289.734161 195.197540 469.846436 169.188538 257.950226 167.846664 109.462067 310.265106 
36_259_param_0 167.156815 168.346924 459.939880 738.384644 158.209244 163.274323 243.080368 216.026581 267.588470 301.560577 319.136200 391.416107 228.555359 264.728760 265.810944 355.322418 310.562378 229.361557 266.628387 288.835083 366.332397 226.761993 307.805908 278.773834 236.236145 402.003082 379.148682 400.147705 302.085938 210.433655 239.278748 249.852066 291.097931 254.000000 235.594208 318.745087 340.439789 248.420242 253.752197 270.370056 193.956741 279.072968 269.669250 286.923340 224.414154 268.833069 225.777771 251.057922 237.747711 250.574188 271.924713 281.489166 298.446350 343.361053 302.437195 255.246323 288.035431 287.716827 261.797699 271.357330 316.034027 184.334518 382.775574 273.497375 379.979553 292.571442 376.405212 309.453888 311.678864 277.140106 320.908081 330.071075 292.242706 409.600006 387.047607 387.047607 286.449341 376.677765 269.250519 293.893799 310.192017 337.348907 304.205841 264.325195 310.747894 171.454193 185.121704 710.644836 264.998474 127.124146 170.442993 261.797699 231.814621 276.110413 353.631531 292.242706 361.998596 265.946838 324.107178 297.763031 320.512634 340.885986 391.121796 322.699738 297.592682 322.499695 277.435730 263.655334 267.313477 312.052795 361.495483 343.587860 348.654144 294.559448 243.992493 279.673126 250.333008 285.192993 285.506042 360.243774 325.730743 351.718719 380.535492 261.665985 318.745087 298.789215 301.910614 285.976898 357.274719 219.490295 258.416290 247.239548 314.505432 260.617249 274.218231 295.228149 312.803375 333.456421 388.492920 349.356628 315.650482 333.456421 383.057434 347.489655 296.574677 331.966827 210.263535 339.108215 276.992554 324.107178 290.285706 318.940521 340.439789 400.147705 371.035675 378.046509 305.995300 294.726349 380.814056 302.437195 235.380997 303.495911 316.996948 280.729614 324.714111 298.617676 259.188843 305.097961 336.041351 374.508270 153.448975 178.760132 594.505127 239.719818 102.804741 244.221603 244.221603 241.052826 262.061462 419.848267 265.539551 362.250702 230.377319 342.908386 384.189056 379.979553 346.794678 354.354218 313.557556 311.119629 264.459595 259.447388 273.785278 267.313477 325.934845 305.097961 329.027191 410.894165 285.976898 314.886200 307.260498 319.528259 322.900055 311.119629 379.148682 375.318909 345.183807 479.439636 251.057922 357.274719 363.262573 282.559479 365.817169 390.241547 316.996948 307.079102 251.787033 368.669037 284.724670 378.596802 307.442078 316.803894 334.743896 344.270020 343.814941 349.591400 378.872528 356.784637 339.994781 317.771545 280.275848 257.011871 310.933655 256.631470 351.243744 290.285706 357.029510 316.803894 292.078613 376.133057 431.694611 264.728760 333.456421 384.473022 282.713043 271.498962 322.499695 378.596802 273.353638 406.717743 349.122162 321.503082 265.539551 512.504456 334.098907 
0_25 49.851387 
1_33 2.503747 
2_41 1.551567 
4_54 3.214239 
5_62 2.648046 
7_73 2.651175 
10_88 2.010812 
12_101 4.865387 
13_109 5.583984 
15_120 4.741503 
18_135 2.577830 
20_148 9.513038 
21_156 7.603613 
23_167 7.115400 
26_182 4.621901 
27_192 10.329037 
28_200 7.357793 
29_208 6.064275 
32_237 7.357793 
35_251 8.936861 
36_259 14.402206 
